{
  "version": "1.0",
  "truncation": null,
  "padding": null,
  "added_tokens": [
    {
      "id": 0,
      "content": "[PAD]",
      "single_word": false,
      "lstrip": false,
      "rstrip": false,
      "normalized": false,
      "special": true
    },
    {
      "id": 1,
      "content": "[UNK]",
      "single_word": false,
      "lstrip": false,
      "rstrip": false,
      "normalized": false,
      "special": true
    },
    {
      "id": 2,
      "content": "[CLS]",
      "single_word": false,
      "lstrip": false,
      "rstrip": false,
      "normalized": false,
      "special": true
    },
    {
      "id": 3,
      "content": "[SEP]",
      "single_word": false,
      "lstrip": false,
      "rstrip": false,
      "normalized": false,
      "special": true
    },
    {
      "id": 4,
      "content": "[MASK]",
      "single_word": false,
      "lstrip": false,
      "rstrip": false,
      "normalized": false,
      "special": true
    }
  ],
  "normalizer": {
    "type": "BertNormalizer",
    "clean_text": true,
    "handle_chinese_chars": true,
    "strip_accents": null,
    "lowercase": true
  },
  "pre_tokenizer": {
    "type": "BertPreTokenizer"
  },
  "post_processor": null,
  "decoder": {
    "type": "WordPiece",
    "prefix": "##",
    "cleanup": true
  },
  "model": {
    "type": "WordPiece",
    "unk_token": "[UNK]",
    "continuing_subword_prefix": "##",
    "max_input_chars_per_word": 100,
    "vocab": {
      "[PAD]": 0,
      "[UNK]": 1,
      "[CLS]": 2,
      "[SEP]": 3,
      "[MASK]": 4,
      "!": 5,
      "\"": 6,
      "$": 7,
      "&": 8,
      "'": 9,
      "(": 10,
      ")": 11,
      ",": 12,
      "-": 13,
      ".": 14,
      "/": 15,
      "0": 16,
      "1": 17,
      "2": 18,
      "3": 19,
      "4": 20,
      "5": 21,
      "6": 22,
      "7": 23,
      "8": 24,
      "9": 25,
      ":": 26,
      ";": 27,
      "=": 28,
      "?": 29,
      "[": 30,
      "]": 31,
      "_": 32,
      "a": 33,
      "b": 34,
      "c": 35,
      "d": 36,
      "e": 37,
      "f": 38,
      "g": 39,
      "h": 40,
      "i": 41,
      "j": 42,
      "k": 43,
      "l": 44,
      "m": 45,
      "n": 46,
      "o": 47,
      "p": 48,
      "q": 49,
      "r": 50,
      "s": 51,
      "t": 52,
      "u": 53,
      "v": 54,
      "w": 55,
      "x": 56,
      "y": 57,
      "z": 58,
      "ˇ": 59,
      "–": 60,
      "—": 61,
      "’": 62,
      "…": 63,
      "─": 64,
      "##o": 65,
      "##u": 66,
      "##n": 67,
      "##g": 68,
      "##i": 69,
      "##l": 70,
      "##r": 71,
      "##a": 72,
      "##e": 73,
      "##d": 74,
      "##c": 75,
      "##h": 76,
      "##t": 77,
      "##s": 78,
      "##k": 79,
      "##w": 80,
      "##f": 81,
      "##m": 82,
      "##p": 83,
      "##v": 84,
      "##x": 85,
      "##y": 86,
      "##b": 87,
      "##0": 88,
      "##q": 89,
      "##9": 90,
      "##5": 91,
      "##4": 92,
      "##z": 93,
      "##j": 94,
      "##6": 95,
      "##7": 96,
      "##1": 97,
      "##2": 98,
      "##3": 99,
      "##─": 100,
      "##8": 101,
      "##ˇ": 102,
      "##he": 103,
      "##er": 104,
      "the": 105,
      "##in": 106,
      "##an": 107,
      "##al": 108,
      "##re": 109,
      "##on": 110,
      "##en": 111,
      "##es": 112,
      "##or": 113,
      "an": 114,
      "##le": 115,
      "##at": 116,
      "##ar": 117,
      "##ou": 118,
      "##ing": 119,
      "and": 120,
      "to": 121,
      "in": 122,
      "##it": 123,
      "##as": 124,
      "##ed": 125,
      "of": 126,
      "##om": 127,
      "##st": 128,
      "bal": 129,
      "##ra": 130,
      "##ent": 131,
      "##ion": 132,
      "##let": 133,
      "th": 134,
      "ballet": 135,
      "##anc": 136,
      "##ic": 137,
      "##is": 138,
      "wit": 139,
      "with": 140,
      "st": 141,
      "##ho": 142,
      "##ro": 143,
      "##ec": 144,
      "##ll": 145,
      "on": 146,
      "##ut": 147,
      "##ig": 148,
      "danc": 149,
      "re": 150,
      "##ve": 151,
      "##ers": 152,
      "##am": 153,
      "##ly": 154,
      "##ay": 155,
      "com": 156,
      "##ud": 157,
      "be": 158,
      "##ad": 159,
      "for": 160,
      "##ol": 161,
      "##ac": 162,
      "##ge": 163,
      "pro": 164,
      "##ir": 165,
      "##ation": 166,
      "you": 167,
      "##est": 168,
      "##rac": 169,
      "##ow": 170,
      "was": 171,
      "##ot": 172,
      "he": 173,
      "ne": 174,
      "it": 175,
      "##et": 176,
      "##id": 177,
      "wor": 178,
      "##il": 179,
      "is": 180,
      "##her": 181,
      "fr": 182,
      "##el": 183,
      "comp": 184,
      "ch": 185,
      "mo": 186,
      "that": 187,
      "as": 188,
      "##um": 189,
      "##im": 190,
      "##ist": 191,
      "##ct": 192,
      "##ter": 193,
      "##ur": 194,
      "at": 195,
      "cou": 196,
      "wh": 197,
      "##og": 198,
      "al": 199,
      "we": 200,
      "##se": 201,
      "##ver": 202,
      "##and": 203,
      "##any": 204,
      "con": 205,
      "by": 206,
      "##art": 207,
      "new": 208,
      "work": 209,
      "ro": 210,
      "##ht": 211,
      "##ess": 212,
      "de": 213,
      "li": 214,
      "dance": 215,
      "##ire": 216,
      "##ld": 217,
      "##ce": 218,
      "##hn": 219,
      "from": 220,
      "ab": 221,
      "trac": 222,
      "##ul": 223,
      "##ill": 224,
      "##are": 225,
      "##ere": 226,
      "##rt": 227,
      "##ear": 228,
      "##to": 229,
      "##ect": 230,
      "cho": 231,
      "##nt": 232,
      "cl": 233,
      "pre": 234,
      "tw": 235,
      "##nd": 236,
      "##ip": 237,
      "##ch": 238,
      "##ine": 239,
      "are": 240,
      "us": 241,
      "##us": 242,
      "##ak": 243,
      "ad": 244,
      "so": 245,
      "whe": 246,
      "##ant": 247,
      "this": 248,
      "##ight": 249,
      "company": 250,
      "##age": 251,
      "##ents": 252,
      "##em": 253,
      "##ally": 254,
      "##ass": 255,
      "##ome": 256,
      "ha": 257,
      "his": 258,
      "jo": 259,
      "##ff": 260,
      "##reog": 261,
      "##rap": 262,
      "dancers": 263,
      "choreog": 264,
      "choreograp": 265,
      "or": 266,
      "##ber": 267,
      "two": 268,
      "can": 269,
      "sc": 270,
      "year": 271,
      "##orm": 272,
      "##oug": 273,
      "##ity": 274,
      "but": 275,
      "##ile": 276,
      "##ive": 277,
      "##cl": 278,
      "##ther": 279,
      "##ins": 280,
      "##out": 281,
      "stud": 282,
      "##ame": 283,
      "##ays": 284,
      "co": 285,
      "ex": 286,
      "pr": 287,
      "##ok": 288,
      "##ug": 289,
      "##ure": 290,
      "##ies": 291,
      "##00": 292,
      "##reat": 293,
      "fe": 294,
      "has": 295,
      "per": 296,
      "tr": 297,
      "will": 298,
      "##oc": 299,
      "##mer": 300,
      "##per": 301,
      "their": 302,
      "##ina": 303,
      "##ard": 304,
      "##rack": 305,
      "nut": 306,
      "not": 307,
      "se": 308,
      "sp": 309,
      "##ust": 310,
      "##crack": 311,
      "##form": 312,
      "they": 313,
      "##all": 314,
      "##ast": 315,
      "nutcrack": 316,
      "nutcracker": 317,
      "sh": 318,
      "some": 319,
      "##un": 320,
      "##ab": 321,
      "balanc": 322,
      "class": 323,
      "have": 324,
      "ac": 325,
      "ap": 326,
      "dire": 327,
      "fou": 328,
      "her": 329,
      "##ag": 330,
      "##hine": 331,
      "##th": 332,
      "##ment": 333,
      "more": 334,
      "##ough": 335,
      "balanchine": 336,
      "direct": 337,
      "20": 338,
      "creat": 339,
      "le": 340,
      "test": 341,
      "var": 342,
      "##si": 343,
      "##ory": 344,
      "##ide": 345,
      "ar": 346,
      "do": 347,
      "po": 348,
      "pho": 349,
      "##iv": 350,
      "##so": 351,
      "comm": 352,
      "prof": 353,
      "students": 354,
      "bo": 355,
      "fo": 356,
      "out": 357,
      "sho": 358,
      "sud": 359,
      "who": 360,
      "were": 361,
      "##ue": 362,
      "##now": 363,
      "##du": 364,
      "##ject": 365,
      "##ank": 366,
      "##esy": 367,
      "one": 368,
      "project": 369,
      "##ime": 370,
      "court": 371,
      "prin": 372,
      "photo": 373,
      "courtesy": 374,
      "bd": 375,
      "city": 376,
      "had": 377,
      "##ull": 378,
      "there": 379,
      "##one": 380,
      "##ram": 381,
      "##ional": 382,
      "##ich": 383,
      "##ach": 384,
      "count": 385,
      "cont": 386,
      "perform": 387,
      "sudo": 388,
      "bda": 389,
      "art": 390,
      "other": 391,
      "te": 392,
      "up": 393,
      "ve": 394,
      "##ov": 395,
      "##ne": 396,
      "##ie": 397,
      "##cip": 398,
      "##ke": 399,
      "##por": 400,
      "##inal": 401,
      "##ary": 402,
      "inst": 403,
      "##ions": 404,
      "##ick": 405,
      "##ical": 406,
      "your": 407,
      "also": 408,
      "about": 409,
      "director": 410,
      "en": 411,
      "just": 412,
      "ny": 413,
      "over": 414,
      "part": 415,
      "time": 416,
      "##cb": 417,
      "##yl": 418,
      "##ind": 419,
      "##ines": 420,
      "##ater": 421,
      "incl": 422,
      "been": 423,
      "##irst": 424,
      "what": 425,
      "like": 426,
      "##aren": 427,
      "john": 428,
      "choreographer": 429,
      "profess": 430,
      "artist": 431,
      "nycb": 432,
      "includ": 433,
      "full": 434,
      "first": 435,
      "get": 436,
      "mar": 437,
      "su": 438,
      "tak": 439,
      "##ia": 440,
      "##ien": 441,
      "##cess": 442,
      "##fe": 443,
      "##mi": 444,
      "##hed": 445,
      "##ork": 446,
      "##led": 447,
      "while": 448,
      "premi": 449,
      "user": 450,
      "when": 451,
      "tran": 452,
      "201": 453,
      "command": 454,
      "princip": 455,
      "professional": 456,
      "principal": 457,
      "19": 458,
      "che": 459,
      "dre": 460,
      "day": 461,
      "fil": 462,
      "ht": 463,
      "how": 464,
      "mc": 465,
      "pi": 466,
      "pl": 467,
      "ser": 468,
      "says": 469,
      "york": 470,
      "##ep": 471,
      "##sent": 472,
      "##ond": 473,
      "##ars": 474,
      "##ous": 475,
      "##ite": 476,
      "off": 477,
      "reg": 478,
      "world": 479,
      "conf": 480,
      "works": 481,
      "##neight": 482,
      "mcneight": 483,
      "all": 484,
      "des": 485,
      "fam": 486,
      "my": 487,
      "men": 488,
      "res": 489,
      "she": 490,
      "tec": 491,
      "want": 492,
      "##ial": 493,
      "##ky": 494,
      "them": 495,
      "##ord": 496,
      "##ould": 497,
      "##ound": 498,
      "inter": 499,
      "ballets": 500,
      "##hool": 501,
      "##ade": 502,
      "##ack": 503,
      "##ational": 504,
      "char": 505,
      "chines": 506,
      "move": 507,
      "choreograph": 508,
      "school": 509,
      "artistic": 510,
      "film": 511,
      "chinese": 512,
      "age": 513,
      "amer": 514,
      "him": 515,
      "im": 516,
      "know": 517,
      "lo": 518,
      "ll": 519,
      "lar": 520,
      "pa": 521,
      "sol": 522,
      "ww": 523,
      "would": 524,
      "##ns": 525,
      "##ged": 526,
      "##lo": 527,
      "##ri": 528,
      "##ry": 529,
      "##day": 530,
      "##ck": 531,
      "##ten": 532,
      "##ss": 533,
      "##ven": 534,
      "##qu": 535,
      "##ree": 536,
      "##ong": 537,
      "took": 538,
      "##ican": 539,
      "stage": 540,
      "##llow": 541,
      "##ache": 542,
      "its": 543,
      "which": 544,
      "rob": 545,
      "life": 546,
      "adm": 547,
      "years": 548,
      "##claren": 549,
      "##ugg": 550,
      "app": 551,
      "four": 552,
      "follow": 553,
      "transi": 554,
      "techn": 555,
      "american": 556,
      "www": 557,
      "18": 558,
      "am": 559,
      "aud": 560,
      "act": 561,
      "bec": 562,
      "bank": 563,
      "cent": 564,
      "di": 565,
      "ever": 566,
      "fa": 567,
      "if": 568,
      "kro": 569,
      "mclaren": 570,
      "op": 571,
      "sur": 572,
      "##ose": 573,
      "##ual": 574,
      "##ni": 575,
      "##les": 576,
      "##ring": 577,
      "##ei": 578,
      "##ton": 579,
      "##wn": 580,
      "##ward": 581,
      "##van": 582,
      "##hears": 583,
      "##int": 584,
      "##our": 585,
      "inv": 586,
      "##ance": 587,
      "##ice": 588,
      "##igest": 589,
      "rehears": 590,
      "most": 591,
      "lib": 592,
      "##ult": 593,
      "create": 594,
      "premiere": 595,
      "check": 596,
      "dream": 597,
      "krohn": 598,
      "af": 599,
      "bas": 600,
      "bro": 601,
      "la": 602,
      "last": 603,
      "many": 604,
      "mak": 605,
      "no": 606,
      "pet": 607,
      "und": 608,
      "##os": 609,
      "##ng": 610,
      "##iz": 611,
      "##ap": 612,
      "##co": 613,
      "##hing": 614,
      "##hip": 615,
      "##son": 616,
      "##ft": 617,
      "##man": 618,
      "##ps": 619,
      "##ors": 620,
      "ann": 621,
      "##ate": 622,
      "##ated": 623,
      "##ition": 624,
      "thing": 625,
      "start": 626,
      "##ign": 627,
      "dancer": 628,
      "##elf": 629,
      "rober": 630,
      "present": 631,
      "add": 632,
      "where": 633,
      "orig": 634,
      "##able": 635,
      "show": 636,
      "counts": 637,
      "install": 638,
      "johnson": 639,
      "including": 640,
      "piec": 641,
      "following": 642,
      "center": 643,
      "every": 644,
      "rehearsal": 645,
      "after": 646,
      "robert": 647,
      "25": 648,
      "ag": 649,
      "ale": 650,
      "cor": 651,
      "car": 652,
      "fram": 653,
      "go": 654,
      "hand": 655,
      "id": 656,
      "log": 657,
      "me": 658,
      "man": 659,
      "made": 660,
      "now": 661,
      "num": 662,
      "national": 663,
      "our": 664,
      "pen": 665,
      "pers": 666,
      "rec": 667,
      "rus": 668,
      "tal": 669,
      "tra": 670,
      "##ore": 671,
      "##gram": 672,
      "##ially": 673,
      "##lant": 674,
      "##rist": 675,
      "##rough": 676,
      "##ain": 677,
      "##ek": 678,
      "##ds": 679,
      "##dy": 680,
      "##sp": 681,
      "##self": 682,
      "##xt": 683,
      "theat": 684,
      "##ink": 685,
      "##anies": 686,
      "##rest": 687,
      "##eng": 688,
      "into": 689,
      "##itt": 690,
      "##raud": 691,
      "than": 692,
      "through": 693,
      "story": 694,
      "only": 695,
      "program": 696,
      "##ations": 697,
      "young": 698,
      "companies": 699,
      "christ": 700,
      "##ument": 701,
      "well": 702,
      "week": 703,
      "dep": 704,
      "##empor": 705,
      "feat": 706,
      "classical": 707,
      "arrest": 708,
      "body": 709,
      "##duct": 710,
      "##port": 711,
      "choreography": 712,
      "solo": 713,
      "admin": 714,
      "diff": 715,
      "open": 716,
      "under": 717,
      "original": 718,
      "frame": 719,
      "theatre": 720,
      "##emporary": 721,
      "bay": 722,
      "came": 723,
      "hol": 724,
      "ka": 725,
      "mart": 726,
      "mus": 727,
      "nb": 728,
      "pec": 729,
      "qu": 730,
      "run": 731,
      "sw": 732,
      "vers": 733,
      "##op": 734,
      "##ually": 735,
      "##ian": 736,
      "##az": 737,
      "##ev": 738,
      "##digest": 739,
      "##hic": 740,
      "##tter": 741,
      "##sen": 742,
      "##ways": 743,
      "##vil": 744,
      "##que": 745,
      "then": 746,
      "these": 747,
      "##red": 748,
      "##ont": 749,
      "toge": 750,
      "##ston": 751,
      "though": 752,
      "##ances": 753,
      "##ish": 754,
      "##iser": 755,
      "##llab": 756,
      "once": 757,
      "##igh": 758,
      "##igure": 759,
      "rep": 760,
      "reper": 761,
      "##estig": 762,
      "##ract": 763,
      "head": 764,
      "##ummer": 765,
      "##uring": 766,
      "atlant": 767,
      "always": 768,
      "adv": 769,
      "collab": 770,
      "exp": 771,
      "share": 772,
      "acc": 773,
      "apache": 774,
      "does": 775,
      "point": 776,
      "contemporary": 777,
      "vehic": 778,
      "##ylvan": 779,
      "htdigest": 780,
      "regina": 781,
      "look": 782,
      "paul": 783,
      "##nsylvan": 784,
      "robb": 785,
      "189": 786,
      "investig": 787,
      "broad": 788,
      "piece": 789,
      "alex": 790,
      "pennsylvan": 791,
      "person": 792,
      "arrested": 793,
      "soloist": 794,
      "kaiser": 795,
      "martins": 796,
      "peck": 797,
      "##ville": 798,
      "together": 799,
      "atlanta": 800,
      "collabor": 801,
      "pennsylvania": 802,
      "aut": 803,
      "bill": 804,
      "bour": 805,
      "cas": 806,
      "dat": 807,
      "dec": 808,
      "did": 809,
      "ek": 810,
      "fin": 811,
      "fac": 812,
      "gu": 813,
      "hist": 814,
      "less": 815,
      "loc": 816,
      "long": 817,
      "mas": 818,
      "mid": 819,
      "mel": 820,
      "mem": 821,
      "mag": 822,
      "pas": 823,
      "pei": 824,
      "sin": 825,
      "sec": 826,
      "snow": 827,
      "sugg": 828,
      "yu": 829,
      "##ux": 830,
      "##non": 831,
      "##ik": 832,
      "##iation": 833,
      "##ces": 834,
      "##ced": 835,
      "##han": 836,
      "##ting": 837,
      "##way": 838,
      "##vent": 839,
      "##ble": 840,
      "##bers": 841,
      "##ery": 842,
      "##eren": 843,
      "##ered": 844,
      "theater": 845,
      "##rey": 846,
      "##ark": 847,
      "anders": 848,
      "today": 849,
      "init": 850,
      "##ason": 851,
      "##stum": 852,
      "##stage": 853,
      "##isco": 854,
      "onstage": 855,
      "dancing": 856,
      "ret": 857,
      "really": 858,
      "##ada": 859,
      "##olog": 860,
      "process": 861,
      "product": 862,
      "##iry": 863,
      "hel": 864,
      "next": 865,
      "working": 866,
      "roy": 867,
      "deux": 868,
      "able": 869,
      "##ection": 870,
      "joff": 871,
      "scen": 872,
      "##insky": 873,
      "costum": 874,
      "##000": 875,
      "feel": 876,
      "season": 877,
      "found": 878,
      "created": 879,
      "team": 880,
      "##iew": 881,
      "choreographers": 882,
      "march": 883,
      "take": 884,
      "plac": 885,
      "server": 886,
      "wanted": 887,
      "charged": 888,
      "movement": 889,
      "transients": 890,
      "technolog": 891,
      "based": 892,
      "things": 893,
      "rehearsals": 894,
      "nboc": 895,
      "robbins": 896,
      "1892": 897,
      "alexand": 898,
      "bournon": 899,
      "data": 900,
      "ekman": 901,
      "master": 902,
      "andersen": 903,
      "joffrey": 904,
      "bournonville": 905,
      "300": 906,
      "5000": 907,
      "bl": 908,
      "best": 909,
      "bot": 910,
      "back": 911,
      "bring": 912,
      "cr": 913,
      "cra": 914,
      "cam": 915,
      "cur": 916,
      "cast": 917,
      "da": 918,
      "each": 919,
      "even": 920,
      "fal": 921,
      "file": 922,
      "foc": 923,
      "free": 924,
      "fraud": 925,
      "gr": 926,
      "ger": 927,
      "gra": 928,
      "got": 929,
      "har": 930,
      "hug": 931,
      "ke": 932,
      "kind": 933,
      "lot": 934,
      "leng": 935,
      "mu": 936,
      "old": 937,
      "own": 938,
      "put": 939,
      "pass": 940,
      "ril": 941,
      "san": 942,
      "sat": 943,
      "som": 944,
      "same": 945,
      "tree": 946,
      "un": 947,
      "utter": 948,
      "vi": 949,
      "vide": 950,
      "view": 951,
      "wat": 952,
      "west": 953,
      "##ning": 954,
      "##ned": 955,
      "##ij": 956,
      "##ious": 957,
      "##la": 958,
      "##low": 959,
      "##ail": 960,
      "##cen": 961,
      "##ched": 962,
      "##tal": 963,
      "##summer": 964,
      "##fi": 965,
      "##ml": 966,
      "##ments": 967,
      "##pr": 968,
      "##ves": 969,
      "##vis": 970,
      "##br": 971,
      "##ern": 972,
      "##ano": 973,
      "##rent": 974,
      "##end": 975,
      "##ates": 976,
      "##athan": 977,
      "##arly": 978,
      "ind": 979,
      "int": 980,
      "inform": 981,
      "##ase": 982,
      "think": 983,
      "##ancisco": 984,
      "##ict": 985,
      "##iss": 986,
      "str": 987,
      "sta": 988,
      "real": 989,
      "beij": 990,
      "##adem": 991,
      "former": 992,
      "forward": 993,
      "##ols": 994,
      "##acher": 995,
      "washing": 996,
      "##ett": 997,
      "##ild": 998,
      "francisco": 999,
      "##eld": 1000,
      "compet": 1001,
      "china": 1002,
      "could": 1003,
      "alth": 1004,
      "role": 1005,
      "##earch": 1006,
      "##toire": 1007,
      "wheater": 1008,
      "##ought": 1009,
      "exper": 1010,
      "##ures": 1011,
      "see": 1012,
      "access": 1013,
      "academ": 1014,
      "variation": 1015,
      "around": 1016,
      "doing": 1017,
      "pos": 1018,
      "##ival": 1019,
      "##anks": 1020,
      "projects": 1021,
      "contin": 1022,
      "performance": 1023,
      "teacher": 1024,
      "justin": 1025,
      "taken": 1026,
      "##ience": 1027,
      "2017": 1028,
      "commands": 1029,
      "195": 1030,
      "html": 1031,
      "configure": 1032,
      "design": 1033,
      "famil": 1034,
      "resp": 1035,
      "intern": 1036,
      "films": 1037,
      "himself": 1038,
      "known": 1039,
      "larcen": 1040,
      "transient": 1041,
      "making": 1042,
      "peter": 1043,
      "installation": 1044,
      "russi": 1045,
      "depart": 1046,
      "musical": 1047,
      "repertoire": 1048,
      "vehicles": 1049,
      "looking": 1050,
      "broadway": 1051,
      "cash": 1052,
      "midsummer": 1053,
      "melina": 1054,
      "since": 1055,
      "both": 1056,
      "craig": 1057,
      "false": 1058,
      "focus": 1059,
      "gradu": 1060,
      "keep": 1061,
      "length": 1062,
      "riles": 1063,
      "somet": 1064,
      "uttering": 1065,
      "video": 1066,
      "information": 1067,
      "beijing": 1068,
      "washington": 1069,
      "although": 1070,
      "larceny": 1071,
      "10": 1072,
      "27": 1073,
      "av": 1074,
      "br": 1075,
      "bow": 1076,
      "ce": 1077,
      "cir": 1078,
      "du": 1079,
      "days": 1080,
      "doc": 1081,
      "during": 1082,
      "end": 1083,
      "eff": 1084,
      "elo": 1085,
      "event": 1086,
      "fre": 1087,
      "fest": 1088,
      "fun": 1089,
      "ge": 1090,
      "give": 1091,
      "hon": 1092,
      "here": 1093,
      "home": 1094,
      "high": 1095,
      "ii": 1096,
      "jam": 1097,
      "kol": 1098,
      "night": 1099,
      "name": 1100,
      "rich": 1101,
      "say": 1102,
      "tit": 1103,
      "tick": 1104,
      "very": 1105,
      "##od": 1106,
      "##ost": 1107,
      "##ove": 1108,
      "##ues": 1109,
      "##use": 1110,
      "##gin": 1111,
      "##iar": 1112,
      "##ily": 1113,
      "##round": 1114,
      "##rument": 1115,
      "##ave": 1116,
      "##ause": 1117,
      "##ts": 1118,
      "##side": 1119,
      "##sky": 1120,
      "##ks": 1121,
      "##ful": 1122,
      "##fore": 1123,
      "##pe": 1124,
      "##ph": 1125,
      "##pt": 1126,
      "##vor": 1127,
      "##yle": 1128,
      "##bu": 1129,
      "##hes": 1130,
      "##erent": 1131,
      "##ination": 1132,
      "##rect": 1133,
      "##ress": 1134,
      "##orge": 1135,
      "##ley": 1136,
      "##ator": 1137,
      "##ating": 1138,
      "##atter": 1139,
      "##ators": 1140,
      "##arr": 1141,
      "##aring": 1142,
      "##ington": 1143,
      "top": 1144,
      "total": 1145,
      "insp": 1146,
      "##ites": 1147,
      "##itions": 1148,
      "##edish": 1149,
      "often": 1150,
      "##oming": 1151,
      "##ently": 1152,
      "thir": 1153,
      "those": 1154,
      "thought": 1155,
      "##ise": 1156,
      "##ising": 1157,
      "without": 1158,
      "step": 1159,
      "style": 1160,
      "##ute": 1161,
      "ref": 1162,
      "reb": 1163,
      "read": 1164,
      "##vel": 1165,
      "##erse": 1166,
      "come": 1167,
      "begin": 1168,
      "before": 1169,
      "##ady": 1170,
      "##act": 1171,
      "##ested": 1172,
      "##ots": 1173,
      "heel": 1174,
      "need": 1175,
      "##ets": 1176,
      "##ided": 1177,
      "##ident": 1178,
      "##iday": 1179,
      "front": 1180,
      "##elt": 1181,
      "mod": 1182,
      "conn": 1183,
      "above": 1184,
      "##ulent": 1185,
      "close": 1186,
      "using": 1187,
      "join": 1188,
      "##bery": 1189,
      "canada": 1190,
      "studi": 1191,
      "exam": 1192,
      "prom": 1193,
      "few": 1194,
      "trick": 1195,
      "sex": 1196,
      "spring": 1197,
      "classes": 1198,
      "lead": 1199,
      "left": 1200,
      "post": 1201,
      "boston": 1202,
      "foot": 1203,
      "shoes": 1204,
      "county": 1205,
      "performed": 1206,
      "performances": 1207,
      "instrument": 1208,
      "enter": 1209,
      "partic": 1210,
      "fullington": 1211,
      "mari": 1212,
      "super": 1213,
      "famous": 1214,
      "##ording": 1215,
      "import": 1216,
      "##rib": 1217,
      "robbery": 1218,
      "appro": 1219,
      "techni": 1220,
      "audition": 1221,
      "became": 1222,
      "because": 1223,
      "favor": 1224,
      "surpr": 1225,
      "surround": 1226,
      "##nik": 1227,
      "started": 1228,
      "presented": 1229,
      "ago": 1230,
      "corps": 1231,
      "correct": 1232,
      "ident": 1233,
      "logo": 1234,
      "number": 1235,
      "talent": 1236,
      "different": 1237,
      "swedish": 1238,
      "version": 1239,
      "##azine": 1240,
      "advice": 1241,
      "expos": 1242,
      "according": 1243,
      "pointe": 1244,
      "collaboration": 1245,
      "local": 1246,
      "second": 1247,
      "suggs": 1248,
      "production": 1249,
      "help": 1250,
      "royal": 1251,
      "costumes": 1252,
      "alexander": 1253,
      "camer": 1254,
      "fraudulent": 1255,
      "hughes": 1256,
      "much": 1257,
      "viol": 1258,
      "views": 1259,
      "staff": 1260,
      "familiar": 1261,
      "department": 1262,
      "document": 1263,
      "festival": 1264,
      "george": 1265,
      "james": 1266,
      "kolnik": 1267,
      "third": 1268,
      "important": 1269,
      "favorite": 1270,
      "surrounding": 1271,
      "000": 1272,
      "16": 1273,
      "22": 1274,
      "200": 1275,
      "award": 1276,
      "bc": 1277,
      "bols": 1278,
      "col": 1279,
      "cot": 1280,
      "cand": 1281,
      "care": 1282,
      "call": 1283,
      "cult": 1284,
      "dan": 1285,
      "don": 1286,
      "dra": 1287,
      "dis": 1288,
      "div": 1289,
      "done": 1290,
      "digest": 1291,
      "el": 1292,
      "ed": 1293,
      "ent": 1294,
      "esp": 1295,
      "fi": 1296,
      "far": 1297,
      "fut": 1298,
      "final": 1299,
      "felt": 1300,
      "great": 1301,
      "ham": 1302,
      "ir": 1303,
      "ip": 1304,
      "ivan": 1305,
      "jun": 1306,
      "kar": 1307,
      "lu": 1308,
      "let": 1309,
      "list": 1310,
      "lear": 1311,
      "line": 1312,
      "light": 1313,
      "lov": 1314,
      "later": 1315,
      "litt": 1316,
      "mal": 1317,
      "mon": 1318,
      "mat": 1319,
      "met": 1320,
      "might": 1321,
      "must": 1322,
      "mast": 1323,
      "mone": 1324,
      "mind": 1325,
      "main": 1326,
      "narr": 1327,
      "oct": 1328,
      "ple": 1329,
      "pul": 1330,
      "pick": 1331,
      "pract": 1332,
      "ren": 1333,
      "ram": 1334,
      "rest": 1335,
      "rare": 1336,
      "sl": 1337,
      "sm": 1338,
      "sy": 1339,
      "set": 1340,
      "sil": 1341,
      "sug": 1342,
      "side": 1343,
      "section": 1344,
      "ty": 1345,
      "tch": 1346,
      "unt": 1347,
      "ubu": 1348,
      "vict": 1349,
      "ws": 1350,
      "wal": 1351,
      "way": 1352,
      "zh": 1353,
      "zou": 1354,
      "##off": 1355,
      "##ober": 1356,
      "##nter": 1357,
      "##name": 1358,
      "##nced": 1359,
      "##gi": 1360,
      "##ier": 1361,
      "##ias": 1362,
      "##ler": 1363,
      "##lor": 1364,
      "##lic": 1365,
      "##av": 1366,
      "##aum": 1367,
      "##aev": 1368,
      "##aik": 1369,
      "##eal": 1370,
      "##ca": 1371,
      "##che": 1372,
      "##cer": 1373,
      "##con": 1374,
      "##ccess": 1375,
      "##hind": 1376,
      "##tt": 1377,
      "##tain": 1378,
      "##sw": 1379,
      "##ser": 1380,
      "##ked": 1381,
      "##wing": 1382,
      "##ware": 1383,
      "##word": 1384,
      "##full": 1385,
      "##fraud": 1386,
      "##ms": 1387,
      "##mar": 1388,
      "##mas": 1389,
      "##mber": 1390,
      "##mond": 1391,
      "##ple": 1392,
      "##pment": 1393,
      "##pite": 1394,
      "##pport": 1395,
      "##ved": 1396,
      "##vinsky": 1397,
      "##verse": 1398,
      "##bs": 1399,
      "##bur": 1400,
      "##zen": 1401,
      "##eres": 1402,
      "##ang": 1403,
      "##ana": 1404,
      "##ans": 1405,
      "##ret": 1406,
      "##ready": 1407,
      "##enade": 1408,
      "##ensen": 1409,
      "##ories": 1410,
      "anot": 1411,
      "anim": 1412,
      "##lect": 1413,
      "##lebr": 1414,
      "##ative": 1415,
      "##ara": 1416,
      "##ounced": 1417,
      "too": 1418,
      "ini": 1419,
      "inc": 1420,
      "##iter": 1421,
      "##iting": 1422,
      "##itic": 1423,
      "##ither": 1424,
      "##ities": 1425,
      "##asar": 1426,
      "##ased": 1427,
      "##ravinsky": 1428,
      "thanks": 1429,
      "##ices": 1430,
      "##ically": 1431,
      "##icult": 1432,
      "##ision": 1433,
      "##ished": 1434,
      "star": 1435,
      "stand": 1436,
      "styl": 1437,
      "stars": 1438,
      "stravinsky": 1439,
      "##hoi": 1440,
      "##ecial": 1441,
      "##ecially": 1442,
      "dances": 1443,
      "danced": 1444,
      "rel": 1445,
      "requ": 1446,
      "##velo": 1447,
      "##vember": 1448,
      "##ership": 1449,
      "beach": 1450,
      "behind": 1451,
      "##adere": 1452,
      "##get": 1453,
      "props": 1454,
      "##otes": 1455,
      "neum": 1456,
      "never": 1457,
      "iss": 1458,
      "frien": 1459,
      "chance": 1460,
      "child": 1461,
      "##urday": 1462,
      "att": 1463,
      "counter": 1464,
      "whites": 1465,
      "already": 1466,
      "concer": 1467,
      "worked": 1468,
      "roots": 1469,
      "dem": 1470,
      "defraud": 1471,
      "develo": 1472,
      "live": 1473,
      "##ired": 1474,
      "absen": 1475,
      "chown": 1476,
      "##ntu": 1477,
      "prep": 1478,
      "##ipa": 1479,
      "##chiv": 1480,
      "users": 1481,
      "##akes": 1482,
      "soft": 1483,
      "##agement": 1484,
      "##ively": 1485,
      "student": 1486,
      "coord": 1487,
      "special": 1488,
      "shiry": 1489,
      "someone": 1490,
      "classic": 1491,
      "directory": 1492,
      "leave": 1493,
      "archiv": 1494,
      "##iven": 1495,
      "boyl": 1496,
      "outside": 1497,
      "prince": 1498,
      "country": 1499,
      "teach": 1500,
      "##ova": 1501,
      "##ovsky": 1502,
      "##inald": 1503,
      "partn": 1504,
      "johnathan": 1505,
      "getting": 1506,
      "success": 1507,
      "support": 1508,
      "taking": 1509,
      "##iences": 1510,
      "##feiting": 1511,
      "premieres": 1512,
      "2015": 1513,
      "dress": 1514,
      "plum": 1515,
      "offered": 1516,
      "reginald": 1517,
      "desc": 1518,
      "despite": 1519,
      "research": 1520,
      "movements": 1521,
      "imp": 1522,
      "love": 1523,
      "large": 1524,
      "amaz": 1525,
      "audiences": 1526,
      "fair": 1527,
      "fairy": 1528,
      "##eier": 1529,
      "checks": 1530,
      "november": 1531,
      "petipa": 1532,
      "##ized": 1533,
      "anna": 1534,
      "announced": 1535,
      "everyone": 1536,
      "hands": 1537,
      "mean": 1538,
      "management": 1539,
      "numbers": 1540,
      "russe": 1541,
      "trad": 1542,
      "christmas": 1543,
      "christensen": 1544,
      "featuring": 1545,
      "features": 1546,
      "difficult": 1547,
      "opened": 1548,
      "underst": 1549,
      "bayadere": 1550,
      "holiday": 1551,
      "quotes": 1552,
      "heads": 1553,
      "header": 1554,
      "expla": 1555,
      "apache2": 1556,
      "investigators": 1557,
      "auth": 1558,
      "decided": 1559,
      "faces": 1560,
      "histor": 1561,
      "history": 1562,
      "members": 1563,
      "magazine": 1564,
      "##erence": 1565,
      "initial": 1566,
      "scene": 1567,
      "placed": 1568,
      "technology": 1569,
      "black": 1570,
      "bringing": 1571,
      "critic": 1572,
      "current": 1573,
      "germar": 1574,
      "password": 1575,
      "saturday": 1576,
      "western": 1577,
      "##ailable": 1578,
      "##fied": 1579,
      "intent": 1580,
      "##ission": 1581,
      "##ettes": 1582,
      "experience": 1583,
      "accessory": 1584,
      "academy": 1585,
      "continues": 1586,
      "teachers": 1587,
      "1954": 1588,
      "international": 1589,
      "russian": 1590,
      "graduation": 1591,
      "something": 1592,
      "available": 1593,
      "bowl": 1594,
      "celebr": 1595,
      "circ": 1596,
      "eventually": 1597,
      "richmond": 1598,
      "tickets": 1599,
      "inspir": 1600,
      "connect": 1601,
      "joined": 1602,
      "sexual": 1603,
      "mariinsky": 1604,
      "technique": 1605,
      "exposure": 1606,
      "cameron": 1607,
      "violin": 1608,
      "documentary": 1609,
      "bcso": 1610,
      "bolshoi": 1611,
      "cote": 1612,
      "candy": 1613,
      "danish": 1614,
      "especially": 1615,
      "little": 1616,
      "month": 1617,
      "masters": 1618,
      "money": 1619,
      "october": 1620,
      "pulled": 1621,
      "ramasar": 1622,
      "small": 1623,
      "sugar": 1624,
      "tchaik": 1625,
      "until": 1626,
      "ubuntu": 1627,
      "victim": 1628,
      "##fully": 1629,
      "##burg": 1630,
      "another": 1631,
      "styles": 1632,
      "neumeier": 1633,
      "counterfeiting": 1634,
      "whiteside": 1635,
      "concerto": 1636,
      "development": 1637,
      "absence": 1638,
      "software": 1639,
      "coordination": 1640,
      "shiryaev": 1641,
      "archives": 1642,
      "boylston": 1643,
      "explains": 1644,
      "germarco": 1645,
      "tchaikovsky": 1646
    }
  }
}